#ifndef UUID2458350283088
#define UUID2458350283088

#include <EloquentTinyML.h>
#include <eloquent_tinyml/tensorflow.h>

#ifdef __has_attribute
#define HAVE_ATTRIBUTE(x) __has_attribute(x)
#else
#define HAVE_ATTRIBUTE(x) 0
#endif
#if HAVE_ATTRIBUTE(aligned) || (defined(__GNUC__) && !defined(__clang__))
#define DATA_ALIGN_ATTRIBUTE __attribute__((aligned(4)))
#else
#define DATA_ALIGN_ATTRIBUTE
#endif

#ifndef ARENA_SIZE
#define ARENA_SIZE 4096
#endif

/** model size = 3204 bytes **/
const unsigned char modelData[] DATA_ALIGN_ATTRIBUTE = { 0x1c, 0x00, 0x00, 0x00, 0x54, 0x46, 0x4c, 0x33, 0x14, 0x00, 0x20, 0x00, 0x1c, 0x00, 0x18, 0x00, 0x14, 0x00, 0x10, 0x00, 0x0c, 0x00, 0x00, 0x00, 0x08, 0x00, 0x04, 0x00, 0x14, 0x00, 0x00, 0x00, 0x1c, 0x00, 0x00, 0x00, 0x98, 0x00, 0x00, 0x00, 0xf0, 0x00, 0x00, 0x00, 0x08, 0x07, 0x00, 0x00, 0x18, 0x07, 0x00, 0x00, 0x30, 0x0c, 0x00, 0x00, 0x03, 0x00, 0x00, 0x00, 0x01, 0x00, 0x00, 0x00, 0x10, 0x00, 0x00, 0x00, 0x00, 0x00, 0x0a, 0x00, 0x10, 0x00, 0x0c, 0x00, 0x08, 0x00, 0x04, 0x00, 0x0a, 0x00, 0x00, 0x00, 0x0c, 0x00, 0x00, 0x00, 0x1c, 0x00, 0x00, 0x00, 0x3c, 0x00, 0x00, 0x00, 0x0f, 0x00, 0x00, 0x00, 0x73, 0x65, 0x72, 0x76, 0x69, 0x6e, 0x67, 0x5f, 0x64, 0x65, 0x66, 0x61, 0x75, 0x6c, 0x74, 0x00, 0x01, 0x00, 0x00, 0x00, 0x04, 0x00, 0x00, 0x00, 0x90, 0xff, 0xff, 0xff, 0x09, 0x00, 0x00, 0x00, 0x04, 0x00, 0x00, 0x00, 0x08, 0x00, 0x00, 0x00, 0x64, 0x65, 0x6e, 0x73, 0x65, 0x5f, 0x31, 0x30, 0x00, 0x00, 0x00, 0x00, 0x01, 0x00, 0x00, 0x00, 0x04, 0x00, 0x00, 0x00, 0xc6, 0xf9, 0xff, 0xff, 0x04, 0x00, 0x00, 0x00, 0x0d, 0x00, 0x00, 0x00, 0x64, 0x65, 0x6e, 0x73, 0x65, 0x5f, 0x38, 0x5f, 0x69, 0x6e, 0x70, 0x75, 0x74, 0x00, 0x00, 0x00, 0x02, 0x00, 0x00, 0x00, 0x34, 0x00, 0x00, 0x00, 0x04, 0x00, 0x00, 0x00, 0xdc, 0xff, 0xff, 0xff, 0x0c, 0x00, 0x00, 0x00, 0x04, 0x00, 0x00, 0x00, 0x13, 0x00, 0x00, 0x00, 0x43, 0x4f, 0x4e, 0x56, 0x45, 0x52, 0x53, 0x49, 0x4f, 0x4e, 0x5f, 0x4d, 0x45, 0x54, 0x41, 0x44, 0x41, 0x54, 0x41, 0x00, 0x08, 0x00, 0x0c, 0x00, 0x08, 0x00, 0x04, 0x00, 0x08, 0x00, 0x00, 0x00, 0x0b, 0x00, 0x00, 0x00, 0x04, 0x00, 0x00, 0x00, 0x13, 0x00, 0x00, 0x00, 0x6d, 0x69, 0x6e, 0x5f, 0x72, 0x75, 0x6e, 0x74, 0x69, 0x6d, 0x65, 0x5f, 0x76, 0x65, 0x72, 0x73, 0x69, 0x6f, 0x6e, 0x00, 0x0d, 0x00, 0x00, 0x00, 0x14, 0x06, 0x00, 0x00, 0x0c, 0x06, 0x00, 0x00, 0xbc, 0x05, 0x00, 0x00, 0xa0, 0x05, 0x00, 0x00, 0x50, 0x05, 0x00, 0x00, 0x00, 0x05, 0x00, 0x00, 0xf0, 0x00, 0x00, 0x00, 0xa0, 0x00, 0x00, 0x00, 0x98, 0x00, 0x00, 0x00, 0x90, 0x00, 0x00, 0x00, 0x88, 0x00, 0x00, 0x00, 0x68, 0x00, 0x00, 0x00, 0x04, 0x00, 0x00, 0x00, 0x76, 0xfa, 0xff, 0xff, 0x04, 0x00, 0x00, 0x00, 0x54, 0x00, 0x00, 0x00, 0x0c, 0x00, 0x00, 0x00, 0x08, 0x00, 0x0e, 0x00, 0x08, 0x00, 0x04, 0x00, 0x08, 0x00, 0x00, 0x00, 0x10, 0x00, 0x00, 0x00, 0x24, 0x00, 0x00, 0x00, 0x00, 0x00, 0x06, 0x00, 0x08, 0x00, 0x04, 0x00, 0x06, 0x00, 0x00, 0x00, 0x04, 0x00, 0x00, 0x00, 0x00, 0x00, 0x00, 0x00, 0x00, 0x00, 0x0a, 0x00, 0x10, 0x00, 0x0c, 0x00, 0x08, 0x00, 0x04, 0x00, 0x0a, 0x00, 0x00, 0x00, 0x02, 0x00, 0x00, 0x00, 0x02, 0x00, 0x00, 0x00, 0x04, 0x00, 0x00, 0x00, 0x06, 0x00, 0x00, 0x00, 0x32, 0x2e, 0x31, 0x34, 0x2e, 0x30, 0x00, 0x00, 0xd6, 0xfa, 0xff, 0xff, 0x04, 0x00, 0x00, 0x00, 0x10, 0x00, 0x00, 0x00, 0x31, 0x2e, 0x35, 0x2e, 0x30, 0x00, 0x00, 0x00, 0x00, 0x00, 0x00, 0x00, 0x00, 0x00, 0x00, 0x00, 0xa0, 0xf5, 0xff, 0xff, 0xa4, 0xf5, 0xff, 0xff, 0xa8, 0xf5, 0xff, 0xff, 0xfe, 0xfa, 0xff, 0xff, 0x04, 0x00, 0x00, 0x00, 0x40, 0x00, 0x00, 0x00, 0x38, 0x53, 0x07, 0x3f, 0x23, 0xa6, 0x32, 0x3f, 0x9c, 0x02, 0x19, 0xbe, 0x7e, 0x7f, 0x61, 0xbf, 0xf8, 0x01, 0x97, 0xbe, 0xac, 0xcb, 0x1a, 0xbe, 0x39, 0x02, 0x49, 0xbf, 0xd9, 0x54, 0x89, 0x3f, 0x72, 0x59, 0x11, 0x3f, 0x10, 0xbe, 0x32, 0xbf, 0xb5, 0x8f, 0x53, 0xbd, 0x25, 0x23, 0x29, 0x3f, 0x23, 0xb8, 0x8a, 0x3f, 0x2f, 0x56, 0x83, 0xbe, 0x28, 0x73, 0x60, 0x3f, 0xe0, 0x14, 0x52, 0xbd, 0x4a, 0xfb, 0xff, 0xff, 0x04, 0x00, 0x00, 0x00, 0x00, 0x04, 0x00, 0x00, 0x0c, 0x56, 0xa6, 0x3d, 0x1d, 0xa0, 0x83, 0xbe, 0x44, 0x7c, 0xb0, 0x3d, 0xd8, 0xb3, 0x1f, 0xbe, 0x70, 0xeb, 0xb7, 0x3c, 0x00, 0x64, 0xd6, 0xb9, 0x00, 0xdc, 0x13, 0xbb, 0x66, 0x8b, 0x30, 0x3e, 0xf8, 0x83, 0x1f, 0xbe, 0x3a, 0x8b, 0x2e, 0x3e, 0xa0, 0xbc, 0x53, 0xbd, 0xb8, 0xcf, 0x2c, 0x3d, 0x10, 0x7b, 0xfa, 0xbd, 0x4c, 0x96, 0x94, 0xbe, 0x92, 0x27, 0x47, 0x3e, 0xe7, 0xe1, 0xb1, 0xbe, 0x62, 0x1b, 0x7e, 0xbe, 0xad, 0x7d, 0xb4, 0xbe, 0x80, 0xd3, 0xeb, 0xbb, 0xf4, 0xbf, 0xb4, 0x3d, 0x88, 0x8b, 0x0d, 0xbe, 0xf2, 0x30, 0x0b, 0xbf, 0xa4, 0xdc, 0xbb, 0xbe, 0x3a, 0xae, 0xb2, 0x3e, 0x52, 0x33, 0xf9, 0x3e, 0x12, 0x2d, 0xc7, 0xbe, 0x79, 0xec, 0xb5, 0x3e, 0xbe, 0xcb, 0xe8, 0x3e, 0xd3, 0xb4, 0x3b, 0xbe, 0xcb, 0x50, 0xab, 0xbe, 0xf3, 0x14, 0x3f, 0x3e, 0x26, 0xba, 0x1e, 0x3d, 0x1a, 0x8a, 0x4b, 0x3e, 0xf0, 0x01, 0x5a, 0xbd, 0xc6, 0x7d, 0x52, 0x3e, 0x1d, 0x86, 0x5f, 0xbe, 0xca, 0xf1, 0x04, 0xbe, 0x38, 0xfd, 0x05, 0x3f, 0xd4, 0x3e, 0x9e, 0x3e, 0xeb, 0xd3, 0x4d, 0x3d, 0xa1, 0x8a, 0x75, 0xbe, 0x49, 0x7a, 0x5c, 0xbe, 0x66, 0x47, 0xaa, 0x3e, 0xff, 0x07, 0xa3, 0xbe, 0x4e, 0x23, 0x62, 0x3e, 0xb1, 0x54, 0x9b, 0x3e, 0x1e, 0x87, 0xfb, 0x3e, 0xac, 0x38, 0xdd, 0x3e, 0xb5, 0xd2, 0xd3, 0x3d, 0xa0, 0x2c, 0xb4, 0xbd, 0xe2, 0x68, 0x55, 0x3e, 0x84, 0x4b, 0xd9, 0xbd, 0xfb, 0x39, 0x37, 0xbe, 0xec, 0xc2, 0x8a, 0x3d, 0xd1, 0x4e, 0x45, 0xbf, 0x60, 0x01, 0x26, 0xbd, 0xc0, 0xf0, 0x5f, 0xbc, 0x92, 0x81, 0x62, 0xbe, 0x34, 0x8a, 0x61, 0xbf, 0xf0, 0x3d, 0xad, 0xbe, 0x7e, 0xb2, 0x66, 0xbe, 0xa1, 0xaa, 0x9c, 0x3e, 0x15, 0xd0, 0xf8, 0x3e, 0x18, 0x62, 0x3c, 0xbf, 0x4c, 0x09, 0x88, 0xbd, 0x1e, 0xc4, 0xc0, 0xbe, 0x97, 0x6d, 0x9b, 0x3e, 0x14, 0x83, 0xc2, 0xbe, 0x70, 0xf4, 0xb6, 0x3e, 0xfb, 0x82, 0x9e, 0x3e, 0xbc, 0xee, 0xe8, 0x3e, 0x7e, 0xe0, 0xc8, 0xbe, 0x1b, 0xf0, 0xa9, 0xbd, 0x00, 0x7d, 0x78, 0x3c, 0x58, 0xa8, 0x16, 0x3d, 0x92, 0x69, 0x31, 0xbd, 0xf4, 0x66, 0xb6, 0x3d, 0xac, 0x5e, 0xe7, 0x3e, 0x5b, 0xf3, 0x0a, 0x3f, 0xc9, 0x13, 0xd6, 0xbc, 0x54, 0x38, 0xaa, 0x3d, 0xb9, 0xf9, 0xc7, 0x3e, 0xa9, 0xf9, 0xd5, 0xbe, 0x68, 0x5f, 0xa5, 0xbe, 0x15, 0x29, 0xa0, 0xbe, 0x8b, 0xad, 0x49, 0xbc, 0x69, 0x91, 0x6a, 0x3e, 0xb2, 0x20, 0x66, 0xbe, 0xe0, 0x1b, 0x21, 0xbf, 0x98, 0xca, 0x69, 0xbd, 0x99, 0x7a, 0xc7, 0x3e, 0x9b, 0x08, 0x8d, 0x3d, 0xa7, 0x16, 0xcf, 0x3e, 0x30, 0x20, 0x51, 0x3e, 0x47, 0xca, 0xf5, 0xbd, 0x02, 0x3f, 0xa6, 0x3e, 0xbc, 0x09, 0xa2, 0x3e, 0x77, 0xe4, 0xad, 0x3e, 0x2c, 0x78, 0x96, 0x3d, 0x3b, 0xd0, 0x95, 0x3e, 0x04, 0xd1, 0xb5, 0xbe, 0xeb, 0xa1, 0xdb, 0x3e, 0x5c, 0x22, 0xb2, 0xbe, 0xef, 0x35, 0x5e, 0xbe, 0x73, 0xa4, 0x98, 0x3e, 0x07, 0x15, 0x57, 0xbe, 0x1e, 0xb5, 0x3d, 0xbf, 0xd6, 0x9e, 0xba, 0xbe, 0xf7, 0x78, 0xdb, 0x3e, 0x25, 0x66, 0x93, 0x3e, 0xc1, 0xcc, 0x34, 0x3f, 0x3a, 0xcf, 0x46, 0xbf, 0x28, 0x3c, 0x95, 0x3d, 0x04, 0x15, 0xcd, 0xbe, 0xe8, 0x79, 0x33, 0x3d, 0x00, 0x44, 0x14, 0xbe, 0x72, 0x48, 0xd8, 0x3e, 0x0e, 0x0a, 0x06, 0x3d, 0x80, 0xf4, 0x1f, 0xbe, 0xd5, 0x73, 0x21, 0xbf, 0x28, 0xc4, 0x0e, 0xbf, 0x61, 0x46, 0xc5, 0xbe, 0x77, 0xef, 0xee, 0xbd, 0x9e, 0xd4, 0x17, 0xbe, 0xc0, 0x9e, 0xe4, 0xbd, 0x26, 0xf2, 0xd2, 0x3d, 0x98, 0xc1, 0x84, 0x3e, 0xfd, 0x09, 0xd1, 0xbc, 0x8f, 0x15, 0x6c, 0xbe, 0x00, 0x02, 0xa3, 0xbe, 0xf6, 0x47, 0x91, 0xbe, 0x01, 0x30, 0x83, 0xbe, 0xee, 0x48, 0x5b, 0x3e, 0xbc, 0x3b, 0xf1, 0xbd, 0x3f, 0x55, 0x86, 0xbe, 0x32, 0x02, 0x2c, 0x3e, 0xd8, 0xad, 0x05, 0xbd, 0xe6, 0x98, 0x88, 0xbe, 0x86, 0x31, 0x9d, 0xbe, 0xc2, 0x7d, 0x64, 0x3e, 0x7e, 0x6a, 0x50, 0x3e, 0x7c, 0xd3, 0x4c, 0xbe, 0xb7, 0xdf, 0xc4, 0xbe, 0xca, 0x91, 0x10, 0x3e, 0x68, 0x30, 0xb4, 0x3e, 0x30, 0xda, 0xc7, 0xbd, 0x1e, 0xbd, 0x2d, 0xbe, 0x08, 0x67, 0x1a, 0x3d, 0x73, 0x6b, 0x0f, 0xbf, 0x0e, 0x3d, 0x16, 0x3e, 0xd2, 0x59, 0x25, 0xbf, 0xea, 0xa4, 0x79, 0x3e, 0x7e, 0x86, 0x5f, 0xbe, 0x62, 0x57, 0x41, 0x3e, 0xde, 0x58, 0xd5, 0xbe, 0x2e, 0x92, 0xfa, 0xbe, 0x7c, 0x7e, 0xbe, 0x3d, 0xb5, 0x74, 0xa0, 0x3e, 0x6c, 0x95, 0x44, 0x3e, 0x6b, 0x0d, 0x19, 0xbf, 0x64, 0xc2, 0x31, 0xbe, 0xed, 0xd7, 0x92, 0x3e, 0x33, 0x02, 0xaa, 0x3e, 0xc1, 0xdf, 0x86, 0x3e, 0x8a, 0xd2, 0xdf, 0x3e, 0x97, 0xf5, 0xe2, 0xbd, 0xe5, 0x7e, 0x9b, 0xbe, 0xaa, 0x21, 0x89, 0x3e, 0xea, 0x29, 0xec, 0xbb, 0x12, 0x01, 0x56, 0x3e, 0xb6, 0x2d, 0x2e, 0x3e, 0xd3, 0xab, 0x87, 0x3c, 0x45, 0x20, 0x95, 0x3e, 0x46, 0x0a, 0x9b, 0x3e, 0x17, 0x9f, 0xee, 0x3e, 0xb7, 0x44, 0x5b, 0x3e, 0x81, 0x62, 0x21, 0x3e, 0x27, 0x4b, 0xa5, 0x3e, 0x45, 0xad, 0xa2, 0x3e, 0x78, 0x36, 0xf9, 0xbd, 0x6a, 0xf4, 0x6c, 0xbe, 0x51, 0x80, 0x70, 0x3e, 0xe7, 0x9e, 0x37, 0xbe, 0x65, 0xa4, 0xf5, 0x3e, 0x58, 0x8b, 0xd3, 0x3e, 0x9c, 0x34, 0xbe, 0xbd, 0x5f, 0x9a, 0xa2, 0xbd, 0x6f, 0x3f, 0x92, 0x3e, 0xb0, 0x4d, 0x9a, 0xbd, 0xed, 0x70, 0xcc, 0x3d, 0x26, 0xb1, 0xc7, 0x3c, 0xda, 0x8f, 0x97, 0xbe, 0xc1, 0x2f, 0xa7, 0x3e, 0x5f, 0x04, 0xc0, 0x3e, 0xd1, 0xa4, 0xb8, 0x3e, 0xf4, 0x99, 0x97, 0xbd, 0x8e, 0xd4, 0x50, 0xbe, 0x4c, 0x76, 0x4d, 0x3e, 0x39, 0x67, 0xbc, 0x3e, 0x68, 0x57, 0x5e, 0xbf, 0xc6, 0x13, 0x54, 0xbf, 0x7a, 0x08, 0xc6, 0xbe, 0xe6, 0xef, 0xea, 0xbd, 0x15, 0xda, 0x9d, 0xbe, 0x44, 0xc0, 0x3f, 0xbe, 0x85, 0xd3, 0x58, 0x3e, 0x16, 0x6e, 0xe1, 0x3e, 0x0e, 0x74, 0x57, 0x3e, 0x24, 0x06, 0x0c, 0xbe, 0xa5, 0x32, 0xce, 0x3e, 0xde, 0x8b, 0x0b, 0x3e, 0x66, 0x1c, 0x45, 0x3e, 0x0c, 0xd2, 0xb8, 0x3d, 0xec, 0xdd, 0xfe, 0x3d, 0x74, 0x85, 0xac, 0xbd, 0x28, 0x42, 0x16, 0x3d, 0xc0, 0x3b, 0x4a, 0xbd, 0xd2, 0xad, 0x5e, 0x3e, 0xd9, 0x9c, 0xbb, 0x3e, 0x99, 0x1b, 0xd3, 0xbe, 0x00, 0xd0, 0x58, 0xbc, 0x8a, 0x59, 0x81, 0xbe, 0x08, 0x32, 0x1c, 0x3d, 0x84, 0xff, 0xbb, 0xbd, 0x6f, 0x1a, 0xf9, 0x3e, 0x48, 0x4b, 0xd0, 0xbe, 0x20, 0x3b, 0xe3, 0xbc, 0x23, 0x29, 0xa9, 0x3e, 0xcf, 0xf9, 0xb5, 0xbe, 0x98, 0xe5, 0x9c, 0x3e, 0xbe, 0xed, 0x9e, 0x3e, 0xcd, 0xe8, 0xff, 0xbe, 0x0a, 0x4a, 0x0c, 0xbf, 0x86, 0x62, 0x32, 0x3e, 0x59, 0xc8, 0xfd, 0xbd, 0xba, 0x7d, 0x68, 0xbe, 0x9d, 0xe6, 0xd8, 0xbe, 0xeb, 0xee, 0x71, 0x3e, 0xa9, 0x0c, 0x66, 0x3d, 0x6d, 0xb7, 0x27, 0xbc, 0xb1, 0x79, 0xd7, 0x3e, 0x88, 0x4b, 0x9d, 0xbe, 0xc4, 0xc2, 0x8f, 0x3d, 0xe9, 0x14, 0x97, 0xbe, 0xaa, 0x3f, 0x96, 0xbe, 0x2e, 0x1c, 0x02, 0x3e, 0x7f, 0x37, 0x9c, 0x3e, 0x22, 0x43, 0x07, 0xbe, 0x31, 0x6e, 0xcd, 0xbe, 0x0a, 0xa0, 0x6f, 0x3e, 0xb6, 0xc2, 0x34, 0xbe, 0xd2, 0xee, 0xae, 0xbe, 0xf4, 0x64, 0x88, 0xbe, 0x4a, 0xb1, 0xc4, 0xbe, 0x20, 0x9a, 0xca, 0xbe, 0x1e, 0x77, 0x01, 0xbe, 0x56, 0xff, 0xff, 0xff, 0x04, 0x00, 0x00, 0x00, 0x40, 0x00, 0x00, 0x00, 0xa0, 0x30, 0x3b, 0x3d, 0x76, 0xa4, 0xda, 0xbe, 0x8d, 0x93, 0xaf, 0xbe, 0x6c, 0x82, 0xdd, 0xbe, 0xa1, 0xd5, 0xc0, 0x3d, 0x38, 0xa2, 0x78, 0x3d, 0x0b, 0x74, 0x89, 0x3d, 0xe8, 0x46, 0x6b, 0x3e, 0x01, 0xea, 0x19, 0x3e, 0x5c, 0xef, 0xf3, 0xbe, 0x3c, 0x42, 0x03, 0x3f, 0xcd, 0x21, 0x19, 0x3f, 0x57, 0x85, 0x02, 0xbf, 0xba, 0x8e, 0x54, 0x3e, 0x71, 0x99, 0x28, 0x3d, 0xdb, 0x2f, 0xff, 0x3d, 0xa2, 0xff, 0xff, 0xff, 0x04, 0x00, 0x00, 0x00, 0x40, 0x00, 0x00, 0x00, 0x64, 0xec, 0x2a, 0x3e, 0x00, 0x00, 0x00, 0x00, 0x00, 0x00, 0x00, 0x00, 0x00, 0x00, 0x00, 0x00, 0xe5, 0xd3, 0x6c, 0x3e, 0xeb, 0x68, 0x0b, 0x3f, 0xba, 0xca, 0x9b, 0x3e, 0xa3, 0x29, 0x07, 0xbf, 0x02, 0x18, 0xfa, 0xbe, 0x00, 0x00, 0x00, 0x00, 0x02, 0x09, 0xf1, 0xbc, 0x36, 0x5b, 0x44, 0xbf, 0x00, 0x00, 0x00, 0x00, 0xd3, 0x03, 0x45, 0x3f, 0xef, 0x17, 0xbd, 0x3e, 0x1f, 0x42, 0x76, 0x3e, 0xee, 0xff, 0xff, 0xff, 0x04, 0x00, 0x00, 0x00, 0x04, 0x00, 0x00, 0x00, 0xf4, 0x14, 0x99, 0xbe, 0x00, 0x00, 0x06, 0x00, 0x08, 0x00, 0x04, 0x00, 0x06, 0x00, 0x00, 0x00, 0x04, 0x00, 0x00, 0x00, 0x40, 0x00, 0x00, 0x00, 0x00, 0x00, 0x00, 0x00, 0xa6, 0xa1, 0x88, 0xbe, 0x34, 0x59, 0x91, 0x3e, 0xac, 0xc7, 0xc8, 0x3e, 0xee, 0x98, 0x97, 0x3e, 0xe0, 0x97, 0x29, 0x3e, 0x4d, 0xa3, 0xd4, 0x3e, 0x0a, 0x50, 0xa1, 0x3e, 0x00, 0x00, 0x00, 0x00, 0x87, 0xea, 0xc6, 0x3e, 0x00, 0xfb, 0x0b, 0x3e, 0x96, 0xff, 0x9e, 0xbe, 0x80, 0x93, 0x9b, 0x3e, 0x00, 0x00, 0x00, 0x00, 0xe9, 0xcd, 0x87, 0x3e, 0x00, 0x00, 0x00, 0x00, 0x00, 0xfb, 0xff, 0xff, 0x04, 0xfb, 0xff, 0xff, 0x0f, 0x00, 0x00, 0x00, 0x4d, 0x4c, 0x49, 0x52, 0x20, 0x43, 0x6f, 0x6e, 0x76, 0x65, 0x72, 0x74, 0x65, 0x64, 0x2e, 0x00, 0x01, 0x00, 0x00, 0x00, 0x14, 0x00, 0x00, 0x00, 0x00, 0x00, 0x0e, 0x00, 0x18, 0x00, 0x14, 0x00, 0x10, 0x00, 0x0c, 0x00, 0x08, 0x00, 0x04, 0x00, 0x0e, 0x00, 0x00, 0x00, 0x14, 0x00, 0x00, 0x00, 0x1c, 0x00, 0x00, 0x00, 0xd8, 0x00, 0x00, 0x00, 0xdc, 0x00, 0x00, 0x00, 0xe0, 0x00, 0x00, 0x00, 0x04, 0x00, 0x00, 0x00, 0x6d, 0x61, 0x69, 0x6e, 0x00, 0x00, 0x00, 0x00, 0x03, 0x00, 0x00, 0x00, 0x80, 0x00, 0x00, 0x00, 0x38, 0x00, 0x00, 0x00, 0x04, 0x00, 0x00, 0x00, 0x9a, 0xff, 0xff, 0xff, 0x10, 0x00, 0x00, 0x00, 0x00, 0x00, 0x00, 0x08, 0x0c, 0x00, 0x00, 0x00, 0x10, 0x00, 0x00, 0x00, 0x7c, 0xfb, 0xff, 0xff, 0x01, 0x00, 0x00, 0x00, 0x09, 0x00, 0x00, 0x00, 0x03, 0x00, 0x00, 0x00, 0x08, 0x00, 0x00, 0x00, 0x06, 0x00, 0x00, 0x00, 0x02, 0x00, 0x00, 0x00, 0xca, 0xff, 0xff, 0xff, 0x10, 0x00, 0x00, 0x00, 0x00, 0x00, 0x00, 0x08, 0x10, 0x00, 0x00, 0x00, 0x14, 0x00, 0x00, 0x00, 0xba, 0xff, 0xff, 0xff, 0x00, 0x00, 0x00, 0x01, 0x01, 0x00, 0x00, 0x00, 0x08, 0x00, 0x00, 0x00, 0x03, 0x00, 0x00, 0x00, 0x07, 0x00, 0x00, 0x00, 0x05, 0x00, 0x00, 0x00, 0x01, 0x00, 0x00, 0x00, 0x00, 0x00, 0x0e, 0x00, 0x16, 0x00, 0x00, 0x00, 0x10, 0x00, 0x0c, 0x00, 0x0b, 0x00, 0x04, 0x00, 0x0e, 0x00, 0x00, 0x00, 0x18, 0x00, 0x00, 0x00, 0x00, 0x00, 0x00, 0x08, 0x18, 0x00, 0x00, 0x00, 0x1c, 0x00, 0x00, 0x00, 0x00, 0x00, 0x06, 0x00, 0x08, 0x00, 0x07, 0x00, 0x06, 0x00, 0x00, 0x00, 0x00, 0x00, 0x00, 0x01, 0x01, 0x00, 0x00, 0x00, 0x07, 0x00, 0x00, 0x00, 0x03, 0x00, 0x00, 0x00, 0x00, 0x00, 0x00, 0x00, 0x04, 0x00, 0x00, 0x00, 0x03, 0x00, 0x00, 0x00, 0x01, 0x00, 0x00, 0x00, 0x09, 0x00, 0x00, 0x00, 0x01, 0x00, 0x00, 0x00, 0x00, 0x00, 0x00, 0x00, 0x0a, 0x00, 0x00, 0x00, 0xac, 0x03, 0x00, 0x00, 0x3c, 0x03, 0x00, 0x00, 0xc8, 0x02, 0x00, 0x00, 0x70, 0x02, 0x00, 0x00, 0x24, 0x02, 0x00, 0x00, 0xd8, 0x01, 0x00, 0x00, 0x88, 0x01, 0x00, 0x00, 0xf4, 0x00, 0x00, 0x00, 0x60, 0x00, 0x00, 0x00, 0x04, 0x00, 0x00, 0x00, 0x92, 0xfc, 0xff, 0xff, 0x00, 0x00, 0x00, 0x01, 0x14, 0x00, 0x00, 0x00, 0x1c, 0x00, 0x00, 0x00, 0x1c, 0x00, 0x00, 0x00, 0x0a, 0x00, 0x00, 0x00, 0x34, 0x00, 0x00, 0x00, 0x02, 0x00, 0x00, 0x00, 0xff, 0xff, 0xff, 0xff, 0x01, 0x00, 0x00, 0x00, 0x7c, 0xfc, 0xff, 0xff, 0x19, 0x00, 0x00, 0x00, 0x53, 0x74, 0x61, 0x74, 0x65, 0x66, 0x75, 0x6c, 0x50, 0x61, 0x72, 0x74, 0x69, 0x74, 0x69, 0x6f, 0x6e, 0x65, 0x64, 0x43, 0x61, 0x6c, 0x6c, 0x3a, 0x30, 0x00, 0x00, 0x00, 0x02, 0x00, 0x00, 0x00, 0x01, 0x00, 0x00, 0x00, 0x01, 0x00, 0x00, 0x00, 0xea, 0xfc, 0xff, 0xff, 0x00, 0x00, 0x00, 0x01, 0x14, 0x00, 0x00, 0x00, 0x1c, 0x00, 0x00, 0x00, 0x1c, 0x00, 0x00, 0x00, 0x09, 0x00, 0x00, 0x00, 0x6c, 0x00, 0x00, 0x00, 0x02, 0x00, 0x00, 0x00, 0xff, 0xff, 0xff, 0xff, 0x10, 0x00, 0x00, 0x00, 0xd4, 0xfc, 0xff, 0xff, 0x52, 0x00, 0x00, 0x00, 0x73, 0x65, 0x71, 0x75, 0x65, 0x6e, 0x74, 0x69, 0x61, 0x6c, 0x5f, 0x38, 0x2f, 0x64, 0x65, 0x6e, 0x73, 0x65, 0x5f, 0x39, 0x2f, 0x4d, 0x61, 0x74, 0x4d, 0x75, 0x6c, 0x3b, 0x73, 0x65, 0x71, 0x75, 0x65, 0x6e, 0x74, 0x69, 0x61, 0x6c, 0x5f, 0x38, 0x2f, 0x64, 0x65, 0x6e, 0x73, 0x65, 0x5f, 0x39, 0x2f, 0x52, 0x65, 0x6c, 0x75, 0x3b, 0x73, 0x65, 0x71, 0x75, 0x65, 0x6e, 0x74, 0x69, 0x61, 0x6c, 0x5f, 0x38, 0x2f, 0x64, 0x65, 0x6e, 0x73, 0x65, 0x5f, 0x39, 0x2f, 0x42, 0x69, 0x61, 0x73, 0x41, 0x64, 0x64, 0x00, 0x00, 0x02, 0x00, 0x00, 0x00, 0x01, 0x00, 0x00, 0x00, 0x10, 0x00, 0x00, 0x00, 0x7a, 0xfd, 0xff, 0xff, 0x00, 0x00, 0x00, 0x01, 0x14, 0x00, 0x00, 0x00, 0x1c, 0x00, 0x00, 0x00, 0x1c, 0x00, 0x00, 0x00, 0x08, 0x00, 0x00, 0x00, 0x6c, 0x00, 0x00, 0x00, 0x02, 0x00, 0x00, 0x00, 0xff, 0xff, 0xff, 0xff, 0x10, 0x00, 0x00, 0x00, 0x64, 0xfd, 0xff, 0xff, 0x52, 0x00, 0x00, 0x00, 0x73, 0x65, 0x71, 0x75, 0x65, 0x6e, 0x74, 0x69, 0x61, 0x6c, 0x5f, 0x38, 0x2f, 0x64, 0x65, 0x6e, 0x73, 0x65, 0x5f, 0x38, 0x2f, 0x4d, 0x61, 0x74, 0x4d, 0x75, 0x6c, 0x3b, 0x73, 0x65, 0x71, 0x75, 0x65, 0x6e, 0x74, 0x69, 0x61, 0x6c, 0x5f, 0x38, 0x2f, 0x64, 0x65, 0x6e, 0x73, 0x65, 0x5f, 0x38, 0x2f, 0x52, 0x65, 0x6c, 0x75, 0x3b, 0x73, 0x65, 0x71, 0x75, 0x65, 0x6e, 0x74, 0x69, 0x61, 0x6c, 0x5f, 0x38, 0x2f, 0x64, 0x65, 0x6e, 0x73, 0x65, 0x5f, 0x38, 0x2f, 0x42, 0x69, 0x61, 0x73, 0x41, 0x64, 0x64, 0x00, 0x00, 0x02, 0x00, 0x00, 0x00, 0x01, 0x00, 0x00, 0x00, 0x10, 0x00, 0x00, 0x00, 0x76, 0xfe, 0xff, 0xff, 0x00, 0x00, 0x00, 0x01, 0x10, 0x00, 0x00, 0x00, 0x10, 0x00, 0x00, 0x00, 0x07, 0x00, 0x00, 0x00, 0x2c, 0x00, 0x00, 0x00, 0xe4, 0xfd, 0xff, 0xff, 0x1c, 0x00, 0x00, 0x00, 0x73, 0x65, 0x71, 0x75, 0x65, 0x6e, 0x74, 0x69, 0x61, 0x6c, 0x5f, 0x38, 0x2f, 0x64, 0x65, 0x6e, 0x73, 0x65, 0x5f, 0x31, 0x30, 0x2f, 0x4d, 0x61, 0x74, 0x4d, 0x75, 0x6c, 0x00, 0x00, 0x00, 0x00, 0x02, 0x00, 0x00, 0x00, 0x01, 0x00, 0x00, 0x00, 0x10, 0x00, 0x00, 0x00, 0xc2, 0xfe, 0xff, 0xff, 0x00, 0x00, 0x00, 0x01, 0x10, 0x00, 0x00, 0x00, 0x10, 0x00, 0x00, 0x00, 0x06, 0x00, 0x00, 0x00, 0x28, 0x00, 0x00, 0x00, 0x30, 0xfe, 0xff, 0xff, 0x1b, 0x00, 0x00, 0x00, 0x73, 0x65, 0x71, 0x75, 0x65, 0x6e, 0x74, 0x69, 0x61, 0x6c, 0x5f, 0x38, 0x2f, 0x64, 0x65, 0x6e, 0x73, 0x65, 0x5f, 0x39, 0x2f, 0x4d, 0x61, 0x74, 0x4d, 0x75, 0x6c, 0x00, 0x02, 0x00, 0x00, 0x00, 0x10, 0x00, 0x00, 0x00, 0x10, 0x00, 0x00, 0x00, 0x0a, 0xff, 0xff, 0xff, 0x00, 0x00, 0x00, 0x01, 0x10, 0x00, 0x00, 0x00, 0x10, 0x00, 0x00, 0x00, 0x05, 0x00, 0x00, 0x00, 0x28, 0x00, 0x00, 0x00, 0x78, 0xfe, 0xff, 0xff, 0x1b, 0x00, 0x00, 0x00, 0x73, 0x65, 0x71, 0x75, 0x65, 0x6e, 0x74, 0x69, 0x61, 0x6c, 0x5f, 0x38, 0x2f, 0x64, 0x65, 0x6e, 0x73, 0x65, 0x5f, 0x38, 0x2f, 0x4d, 0x61, 0x74, 0x4d, 0x75, 0x6c, 0x00, 0x02, 0x00, 0x00, 0x00, 0x10, 0x00, 0x00, 0x00, 0x01, 0x00, 0x00, 0x00, 0x52, 0xff, 0xff, 0xff, 0x00, 0x00, 0x00, 0x01, 0x10, 0x00, 0x00, 0x00, 0x10, 0x00, 0x00, 0x00, 0x04, 0x00, 0x00, 0x00, 0x38, 0x00, 0x00, 0x00, 0xc0, 0xfe, 0xff, 0xff, 0x2b, 0x00, 0x00, 0x00, 0x73, 0x65, 0x71, 0x75, 0x65, 0x6e, 0x74, 0x69, 0x61, 0x6c, 0x5f, 0x38, 0x2f, 0x64, 0x65, 0x6e, 0x73, 0x65, 0x5f, 0x38, 0x2f, 0x42, 0x69, 0x61, 0x73, 0x41, 0x64, 0x64, 0x2f, 0x52, 0x65, 0x61, 0x64, 0x56, 0x61, 0x72, 0x69, 0x61, 0x62, 0x6c, 0x65, 0x4f, 0x70, 0x00, 0x01, 0x00, 0x00, 0x00, 0x10, 0x00, 0x00, 0x00, 0xa6, 0xff, 0xff, 0xff, 0x00, 0x00, 0x00, 0x01, 0x10, 0x00, 0x00, 0x00, 0x10, 0x00, 0x00, 0x00, 0x03, 0x00, 0x00, 0x00, 0x3c, 0x00, 0x00, 0x00, 0x14, 0xff, 0xff, 0xff, 0x2c, 0x00, 0x00, 0x00, 0x73, 0x65, 0x71, 0x75, 0x65, 0x6e, 0x74, 0x69, 0x61, 0x6c, 0x5f, 0x38, 0x2f, 0x64, 0x65, 0x6e, 0x73, 0x65, 0x5f, 0x31, 0x30, 0x2f, 0x42, 0x69, 0x61, 0x73, 0x41, 0x64, 0x64, 0x2f, 0x52, 0x65, 0x61, 0x64, 0x56, 0x61, 0x72, 0x69, 0x61, 0x62, 0x6c, 0x65, 0x4f, 0x70, 0x00, 0x00, 0x00, 0x00, 0x01, 0x00, 0x00, 0x00, 0x01, 0x00, 0x00, 0x00, 0x00, 0x00, 0x16, 0x00, 0x18, 0x00, 0x14, 0x00, 0x00, 0x00, 0x10, 0x00, 0x0c, 0x00, 0x08, 0x00, 0x00, 0x00, 0x00, 0x00, 0x00, 0x00, 0x07, 0x00, 0x16, 0x00, 0x00, 0x00, 0x00, 0x00, 0x00, 0x01, 0x10, 0x00, 0x00, 0x00, 0x10, 0x00, 0x00, 0x00, 0x02, 0x00, 0x00, 0x00, 0x38, 0x00, 0x00, 0x00, 0x84, 0xff, 0xff, 0xff, 0x2b, 0x00, 0x00, 0x00, 0x73, 0x65, 0x71, 0x75, 0x65, 0x6e, 0x74, 0x69, 0x61, 0x6c, 0x5f, 0x38, 0x2f, 0x64, 0x65, 0x6e, 0x73, 0x65, 0x5f, 0x39, 0x2f, 0x42, 0x69, 0x61, 0x73, 0x41, 0x64, 0x64, 0x2f, 0x52, 0x65, 0x61, 0x64, 0x56, 0x61, 0x72, 0x69, 0x61, 0x62, 0x6c, 0x65, 0x4f, 0x70, 0x00, 0x01, 0x00, 0x00, 0x00, 0x10, 0x00, 0x00, 0x00, 0x00, 0x00, 0x16, 0x00, 0x1c, 0x00, 0x18, 0x00, 0x00, 0x00, 0x14, 0x00, 0x10, 0x00, 0x0c, 0x00, 0x00, 0x00, 0x00, 0x00, 0x08, 0x00, 0x07, 0x00, 0x16, 0x00, 0x00, 0x00, 0x00, 0x00, 0x00, 0x01, 0x14, 0x00, 0x00, 0x00, 0x20, 0x00, 0x00, 0x00, 0x20, 0x00, 0x00, 0x00, 0x01, 0x00, 0x00, 0x00, 0x3c, 0x00, 0x00, 0x00, 0x02, 0x00, 0x00, 0x00, 0xff, 0xff, 0xff, 0xff, 0x01, 0x00, 0x00, 0x00, 0x04, 0x00, 0x04, 0x00, 0x04, 0x00, 0x00, 0x00, 0x1f, 0x00, 0x00, 0x00, 0x73, 0x65, 0x72, 0x76, 0x69, 0x6e, 0x67, 0x5f, 0x64, 0x65, 0x66, 0x61, 0x75, 0x6c, 0x74, 0x5f, 0x64, 0x65, 0x6e, 0x73, 0x65, 0x5f, 0x38, 0x5f, 0x69, 0x6e, 0x70, 0x75, 0x74, 0x3a, 0x30, 0x00, 0x02, 0x00, 0x00, 0x00, 0x01, 0x00, 0x00, 0x00, 0x01, 0x00, 0x00, 0x00, 0x01, 0x00, 0x00, 0x00, 0x10, 0x00, 0x00, 0x00, 0x0c, 0x00, 0x0c, 0x00, 0x0b, 0x00, 0x00, 0x00, 0x00, 0x00, 0x04, 0x00, 0x0c, 0x00, 0x00, 0x00, 0x09, 0x00, 0x00, 0x00, 0x00, 0x00, 0x00, 0x09 };

/**
 * Wrapper around the EloquentTinyML library
 */
template<uint32_t arenaSize>
class TensorFlowPorter {
    public:
        Eloquent::TinyML::TensorFlow::AllOpsTensorFlow<1, 1, arenaSize> tf;

        /**
         * Init model
         */
        bool begin() {
            return tf.begin(modelData);
        }

        /**
         * Proxy
         */
        uint8_t predict(uint8_t *input, uint8_t *output = NULL) {
            return tf.predict(input, output);
        }

        /**
         * Proxy
         */
        int8_t predict(int8_t *input, int8_t *output = NULL) {
            return tf.predict(input, output);
        }

        /**
         * Proxy
         */
        float predict(float *input, float *output = NULL) {
            return tf.predict(input, output);
        }

        /**
         * Proxy
         */
        template<typename T>
        uint8_t predictClass(T *input) {
            return tf.predictClass(input);
        }

        /**
         * Proxy
         */
        float getScoreAt(uint8_t index) {
            return tf.getScoreAt(index);
        }

        /**
         * Proxy
         */
        String getErrorMessage() {
            return tf.getErrorMessage();
        }
};



TensorFlowPorter<ARENA_SIZE> sineNN;


#endif